__attribute__((section("network_model_sec"), aligned(16))) char model_pte[] = {
0x24, 0x00, 0x00, 0x00, 0x45, 0x54, 0x31, 0x32, 0x00, 0x00, 0x00, 0x00, 0x00, 0x00, 0x00, 0x00, 0x00, 0x00, 0x00, 0x00, 0x10, 0x00, 0x18, 0x00, 0x00, 0x00, 0x04, 0x00, 0x08, 0x00, 0x0c, 0x00, 
0x10, 0x00, 0x14, 0x00, 0x10, 0x00, 0x00, 0x00, 0x74, 0x05, 0x00, 0x00, 0x6c, 0x05, 0x00, 0x00, 0x2c, 0x00, 0x00, 0x00, 0x1c, 0x00, 0x00, 0x00, 0x04, 0x00, 0x00, 0x00, 0x0c, 0xf7, 0xff, 0xff, 
0x04, 0x00, 0x00, 0x00, 0x01, 0x00, 0x00, 0x00, 0x00, 0x00, 0x00, 0x00, 0x00, 0x00, 0x00, 0x00, 0x01, 0x00, 0x00, 0x00, 0x04, 0x00, 0x00, 0x00, 0x70, 0xf6, 0xff, 0xff, 0x01, 0x00, 0x00, 0x00, 
0x04, 0x00, 0x00, 0x00, 0x3a, 0xf3, 0xff, 0xff, 0x04, 0x00, 0x00, 0x00, 0x20, 0x05, 0x00, 0x00, 0x76, 0x65, 0x6c, 0x61, 0x5f, 0x62, 0x69, 0x6e, 0x5f, 0x73, 0x74, 0x72, 0x65, 0x61, 0x6d, 0x00, 
0x00, 0x00, 0x00, 0x00, 0x00, 0x00, 0x00, 0x00, 0x00, 0x00, 0x00, 0x00, 0x00, 0x00, 0x00, 0x00, 0x63, 0x6d, 0x64, 0x5f, 0x64, 0x61, 0x74, 0x61, 0x00, 0x00, 0x00, 0x00, 0x00, 0x00, 0x00, 0x00, 
0x8c, 0x03, 0x00, 0x00, 0x00, 0x00, 0x00, 0x00, 0x00, 0x00, 0x00, 0x00, 0x00, 0x00, 0x00, 0x00, 0x43, 0x4f, 0x50, 0x31, 0x01, 0x00, 0x10, 0x00, 0x07, 0x18, 0x00, 0x00, 0x01, 0x60, 0x06, 0x10, 
0x05, 0x00, 0x00, 0x00, 0x05, 0x00, 0x00, 0x00, 0x05, 0x00, 0x00, 0x00, 0x02, 0x00, 0xdb, 0x00, 0x30, 0x01, 0x01, 0x00, 0x30, 0x40, 0x00, 0x00, 0x10, 0x00, 0x00, 0x00, 0x31, 0x01, 0x01, 0x00, 
0x31, 0x40, 0x00, 0x00, 0x00, 0x00, 0x00, 0x00, 0x32, 0x40, 0x00, 0x00, 0x01, 0x00, 0x00, 0x00, 0x10, 0x00, 0x00, 0x00, 0x30, 0x40, 0x00, 0x00, 0x00, 0x00, 0x00, 0x00, 0x31, 0x40, 0x00, 0x00, 
0x50, 0x00, 0x00, 0x00, 0x11, 0x00, 0x00, 0x00, 0x10, 0x00, 0x00, 0x00, 0x25, 0x40, 0x00, 0x00, 0x01, 0x00, 0x00, 0x00, 0x26, 0x40, 0x00, 0x00, 0x01, 0x00, 0x00, 0x00, 0x24, 0x40, 0x00, 0x00, 
0x01, 0x00, 0x00, 0x00, 0x0f, 0x01, 0x01, 0x00, 0x00, 0x40, 0x00, 0x00, 0x50, 0x00, 0x00, 0x00, 0x01, 0x40, 0x00, 0x00, 0x00, 0x00, 0x00, 0x00, 0x02, 0x40, 0x00, 0x00, 0x00, 0x00, 0x00, 0x00, 
0x03, 0x40, 0x00, 0x00, 0x00, 0x00, 0x00, 0x00, 0x0b, 0x01, 0x00, 0x00, 0x0c, 0x01, 0x00, 0x00, 0x0a, 0x01, 0x00, 0x00, 0x04, 0x01, 0x00, 0x00, 0x05, 0x40, 0x00, 0x00, 0x01, 0x00, 0x00, 0x00, 
0x04, 0x40, 0x00, 0x00, 0x01, 0x00, 0x00, 0x00, 0x06, 0x40, 0x00, 0x00, 0x01, 0x00, 0x00, 0x00, 0x09, 0x01, 0x80, 0xff, 0x05, 0x01, 0x01, 0x00, 0x07, 0x01, 0x00, 0x00, 0x1f, 0x01, 0x01, 0x00, 
0x10, 0x40, 0x00, 0x00, 0x00, 0x00, 0x00, 0x00, 0x11, 0x40, 0x00, 0x00, 0x00, 0x00, 0x00, 0x00, 0x12, 0x40, 0x00, 0x00, 0x00, 0x00, 0x00, 0x00, 0x13, 0x40, 0x00, 0x00, 0x00, 0x00, 0x00, 0x00, 
0x12, 0x01, 0x00, 0x00, 0x11, 0x01, 0x00, 0x00, 0x1b, 0x01, 0x00, 0x00, 0x1c, 0x01, 0x00, 0x00, 0x1a, 0x01, 0x00, 0x00, 0x13, 0x01, 0x00, 0x00, 0x15, 0x40, 0x00, 0x00, 0x40, 0x00, 0x00, 0x00, 
0x14, 0x40, 0x00, 0x00, 0x40, 0x00, 0x00, 0x00, 0x16, 0x40, 0x00, 0x00, 0x40, 0x00, 0x00, 0x00, 0x18, 0x01, 0x00, 0x00, 0x14, 0x01, 0x45, 0x01, 0x25, 0x01, 0x00, 0x00, 0x26, 0x01, 0x00, 0x80, 
0x27, 0x01, 0xff, 0x7f, 0x81, 0x01, 0x00, 0x00, 0x89, 0x01, 0x00, 0x00, 0x85, 0x01, 0x01, 0x00, 0x80, 0x01, 0x80, 0x00, 0x16, 0x01, 0x00, 0x00, 0x15, 0x01, 0x01, 0x00, 0x17, 0x01, 0x07, 0x00, 
0x0d, 0x01, 0x16, 0x00, 0x2d, 0x01, 0x16, 0x00, 0x8d, 0x01, 0x06, 0x00, 0x24, 0x01, 0x00, 0x00, 0x2f, 0x01, 0x00, 0x00, 0x11, 0x00, 0x00, 0x00, 0x06, 0x00, 0x01, 0x00, 0x24, 0x40, 0x0b, 0x00, 
0x01, 0x00, 0x00, 0x00, 0x00, 0x40, 0x00, 0x00, 0x00, 0x00, 0x00, 0x00, 0x05, 0x40, 0x00, 0x00, 0x40, 0x00, 0x00, 0x00, 0x04, 0x40, 0x00, 0x00, 0x40, 0x00, 0x00, 0x00, 0x06, 0x40, 0x00, 0x00, 
0x40, 0x00, 0x00, 0x00, 0x09, 0x01, 0x00, 0x00, 0x05, 0x01, 0x49, 0x00, 0x14, 0x01, 0x45, 0x81, 0x8f, 0x01, 0x00, 0x00, 0x80, 0x40, 0x00, 0x00, 0x10, 0x00, 0x00, 0x00, 0x81, 0x40, 0x00, 0x00, 
0x00, 0x00, 0x00, 0x00, 0x82, 0x40, 0x00, 0x00, 0x00, 0x00, 0x00, 0x00, 0x83, 0x40, 0x00, 0x00, 0x00, 0x00, 0x00, 0x00, 0x8b, 0x01, 0x00, 0x00, 0x8c, 0x01, 0x00, 0x00, 0x8a, 0x01, 0x00, 0x00, 
0x85, 0x40, 0x00, 0x00, 0x04, 0x00, 0x00, 0x00, 0x84, 0x40, 0x00, 0x00, 0x04, 0x00, 0x00, 0x00, 0x86, 0x40, 0x00, 0x00, 0x04, 0x00, 0x00, 0x00, 0x85, 0x01, 0x09, 0x00, 0x80, 0x01, 0x00, 0x00, 
0x8d, 0x01, 0x0a, 0x00, 0x06, 0x00, 0x00, 0x00, 0x30, 0x40, 0x00, 0x00, 0x40, 0x00, 0x00, 0x00, 0x12, 0x00, 0x01, 0x00, 0x10, 0x00, 0x00, 0x00, 0x30, 0x40, 0x00, 0x00, 0x50, 0x00, 0x00, 0x00, 
0x31, 0x40, 0x00, 0x00, 0x80, 0x00, 0x00, 0x00, 0x11, 0x00, 0x00, 0x00, 0x10, 0x00, 0x00, 0x00, 0x24, 0x40, 0x00, 0x00, 0x01, 0x00, 0x00, 0x00, 0x00, 0x40, 0x00, 0x00, 0x80, 0x00, 0x00, 0x00, 
0x05, 0x40, 0x00, 0x00, 0x01, 0x00, 0x00, 0x00, 0x04, 0x40, 0x00, 0x00, 0x01, 0x00, 0x00, 0x00, 0x06, 0x40, 0x00, 0x00, 0x01, 0x00, 0x00, 0x00, 0x09, 0x01, 0x80, 0xff, 0x05, 0x01, 0x01, 0x00, 
0x10, 0x40, 0x00, 0x00, 0x40, 0x00, 0x00, 0x00, 0x14, 0x01, 0x45, 0x01, 0x85, 0x01, 0x01, 0x00, 0x80, 0x01, 0x80, 0x00, 0x8d, 0x01, 0x06, 0x00, 0x2f, 0x01, 0x03, 0x00, 0x11, 0x00, 0x00, 0x00, 
0x06, 0x00, 0x01, 0x00, 0x24, 0x40, 0x0b, 0x00, 0x01, 0x00, 0x00, 0x00, 0x00, 0x40, 0x00, 0x00, 0x40, 0x00, 0x00, 0x00, 0x05, 0x40, 0x00, 0x00, 0x40, 0x00, 0x00, 0x00, 0x04, 0x40, 0x00, 0x00, 
0x40, 0x00, 0x00, 0x00, 0x06, 0x40, 0x00, 0x00, 0x40, 0x00, 0x00, 0x00, 0x09, 0x01, 0x00, 0x00, 0x05, 0x01, 0x49, 0x00, 0x14, 0x01, 0x45, 0x81, 0x85, 0x01, 0x09, 0x00, 0x80, 0x01, 0x00, 0x00, 
0x8d, 0x01, 0x0a, 0x00, 0x2f, 0x01, 0x00, 0x00, 0x06, 0x00, 0x00, 0x00, 0x24, 0x40, 0x00, 0x00, 0x01, 0x00, 0x00, 0x00, 0x14, 0x01, 0x45, 0x01, 0x8f, 0x01, 0x01, 0x00, 0x80, 0x40, 0x00, 0x00, 
0x00, 0x00, 0x00, 0x00, 0x85, 0x40, 0x00, 0x00, 0x40, 0x00, 0x00, 0x00, 0x84, 0x40, 0x00, 0x00, 0x40, 0x00, 0x00, 0x00, 0x86, 0x40, 0x00, 0x00, 0x40, 0x00, 0x00, 0x00, 0x85, 0x01, 0x49, 0x00, 
0x06, 0x00, 0x01, 0x00, 0x24, 0x40, 0x32, 0x00, 0x01, 0x00, 0x00, 0x00, 0x10, 0x40, 0x00, 0x00, 0x00, 0x00, 0x00, 0x00, 0x15, 0x40, 0x00, 0x00, 0x01, 0x00, 0x00, 0x00, 0x14, 0x40, 0x00, 0x00, 
0x01, 0x00, 0x00, 0x00, 0x16, 0x40, 0x00, 0x00, 0x01, 0x00, 0x00, 0x00, 0x18, 0x01, 0x80, 0xff, 0x14, 0x01, 0x01, 0x81, 0x26, 0x01, 0x80, 0xff, 0x27, 0x01, 0x7f, 0x00, 0x8f, 0x01, 0x00, 0x00, 
0x80, 0x40, 0x00, 0x00, 0x10, 0x00, 0x00, 0x00, 0x85, 0x40, 0x00, 0x00, 0x04, 0x00, 0x00, 0x00, 0x84, 0x40, 0x00, 0x00, 0x04, 0x00, 0x00, 0x00, 0x86, 0x40, 0x00, 0x00, 0x04, 0x00, 0x00, 0x00, 
0x85, 0x01, 0x09, 0x00, 0x06, 0x00, 0x00, 0x00, 0x30, 0x40, 0x00, 0x00, 0x00, 0x00, 0x00, 0x00, 0x31, 0x40, 0x00, 0x00, 0x10, 0x00, 0x00, 0x00, 0x12, 0x00, 0x00, 0x00, 0x10, 0x00, 0x00, 0x00, 
0x30, 0x40, 0x00, 0x00, 0x10, 0x00, 0x00, 0x00, 0x31, 0x40, 0x00, 0x00, 0x00, 0x00, 0x00, 0x00, 0x11, 0x00, 0x00, 0x00, 0x10, 0x00, 0x00, 0x00, 0x00, 0x00, 0xff, 0xff, 0x00, 0x00, 0x00, 0x00, 
0x77, 0x65, 0x69, 0x67, 0x68, 0x74, 0x5f, 0x64, 0x61, 0x74, 0x61, 0x00, 0x00, 0x00, 0x00, 0x00, 0x20, 0x00, 0x00, 0x00, 0x00, 0x00, 0x00, 0x00, 0x00, 0x00, 0x00, 0x00, 0x00, 0x00, 0x00, 0x00, 
0x00, 0x00, 0x00, 0x00, 0x00, 0x00, 0x00, 0x00, 0x00, 0x00, 0x00, 0x00, 0x00, 0x00, 0x00, 0x00, 0x00, 0x00, 0x00, 0x40, 0x00, 0x00, 0x00, 0x00, 0x00, 0x00, 0x00, 0x00, 0x00, 0x00, 0x00, 0x00, 
0x73, 0x63, 0x72, 0x61, 0x74, 0x63, 0x68, 0x5f, 0x73, 0x69, 0x7a, 0x65, 0x00, 0x00, 0x00, 0x00, 0x04, 0x00, 0x00, 0x00, 0x00, 0x00, 0x00, 0x00, 0x00, 0x00, 0x00, 0x00, 0x00, 0x00, 0x00, 0x00, 
0x90, 0x00, 0x00, 0x00, 0x00, 0x00, 0x00, 0x00, 0x00, 0x00, 0x00, 0x00, 0x00, 0x00, 0x00, 0x00, 0x69, 0x6e, 0x70, 0x75, 0x74, 0x73, 0x00, 0x00, 0x00, 0x00, 0x00, 0x00, 0x00, 0x00, 0x00, 0x00, 
0x4c, 0x00, 0x00, 0x00, 0x00, 0x00, 0x00, 0x00, 0x00, 0x00, 0x00, 0x00, 0x00, 0x00, 0x00, 0x00, 0x02, 0x00, 0x00, 0x00, 0x01, 0x00, 0x00, 0x00, 0x01, 0x00, 0x00, 0x00, 0x01, 0x00, 0x00, 0x00, 
0x01, 0x00, 0x00, 0x00, 0x01, 0x00, 0x00, 0x00, 0x01, 0x00, 0x00, 0x00, 0x01, 0x00, 0x00, 0x00, 0x40, 0x00, 0x00, 0x00, 0x01, 0x00, 0x00, 0x00, 0x01, 0x00, 0x00, 0x00, 0x01, 0x00, 0x00, 0x00, 
0x01, 0x00, 0x00, 0x00, 0x01, 0x00, 0x00, 0x00, 0x01, 0x00, 0x00, 0x00, 0x01, 0x00, 0x00, 0x00, 0x01, 0x00, 0x00, 0x00, 0x10, 0x00, 0x00, 0x00, 0x01, 0x00, 0x00, 0x00, 0x00, 0x00, 0x00, 0x00, 
0x6f, 0x75, 0x74, 0x70, 0x75, 0x74, 0x73, 0x00, 0x00, 0x00, 0x00, 0x00, 0x00, 0x00, 0x00, 0x00, 0x28, 0x00, 0x00, 0x00, 0x00, 0x00, 0x00, 0x00, 0x00, 0x00, 0x00, 0x00, 0x00, 0x00, 0x00, 0x00, 
0x01, 0x00, 0x00, 0x00, 0x01, 0x00, 0x00, 0x00, 0x01, 0x00, 0x00, 0x00, 0x01, 0x00, 0x00, 0x00, 0x01, 0x00, 0x00, 0x00, 0x01, 0x00, 0x00, 0x00, 0x01, 0x00, 0x00, 0x00, 0x01, 0x00, 0x00, 0x00, 
0x00, 0x00, 0x00, 0x00, 0x01, 0x00, 0x00, 0x00, 0x00, 0x00, 0x00, 0x00, 0x00, 0x00, 0x00, 0x00, 0x76, 0x65, 0x6c, 0x61, 0x5f, 0x65, 0x6e, 0x64, 0x5f, 0x73, 0x74, 0x72, 0x65, 0x61, 0x6d, 0x00, 
0x00, 0x00, 0x00, 0x00, 0x00, 0x00, 0x00, 0x00, 0x00, 0x00, 0x00, 0x00, 0x00, 0x00, 0x00, 0x00, 0x00, 0x00, 0x00, 0x00, 0x00, 0x00, 0x00, 0x00, 0x00, 0x00, 0x00, 0x00, 0x01, 0x00, 0x00, 0x00, 
0x1c, 0x00, 0x00, 0x00, 0x00, 0x00, 0x16, 0x00, 0x28, 0x00, 0x04, 0x00, 0x08, 0x00, 0x0c, 0x00, 0x10, 0x00, 0x14, 0x00, 0x18, 0x00, 0x1c, 0x00, 0x20, 0x00, 0x24, 0x00, 0x16, 0x00, 0x00, 0x00, 
0x24, 0x09, 0x00, 0x00, 0x98, 0x07, 0x00, 0x00, 0xb8, 0x03, 0x00, 0x00, 0xa8, 0x03, 0x00, 0x00, 0x9c, 0x03, 0x00, 0x00, 0x7c, 0x02, 0x00, 0x00, 0xe4, 0x01, 0x00, 0x00, 0x1c, 0x00, 0x00, 0x00, 
0x04, 0x00, 0x00, 0x00, 0x02, 0x00, 0x00, 0x00, 0x00, 0x00, 0x00, 0x00, 0x00, 0x00, 0x00, 0x00, 0x30, 0x00, 0x00, 0x00, 0x00, 0x00, 0x00, 0x00, 0x01, 0x00, 0x00, 0x00, 0x04, 0x00, 0x00, 0x00, 
0xa6, 0xfd, 0xff, 0xff, 0xa4, 0x01, 0x00, 0x00, 0x9c, 0x01, 0x00, 0x00, 0x04, 0x00, 0x00, 0x00, 0x04, 0x00, 0x00, 0x00, 0x58, 0x01, 0x00, 0x00, 0x60, 0x00, 0x00, 0x00, 0x34, 0x00, 0x00, 0x00, 
0x04, 0x00, 0x00, 0x00, 0xd0, 0xf8, 0xff, 0xff, 0x1c, 0x00, 0x00, 0x00, 0x04, 0x00, 0x00, 0x00, 0x0d, 0x00, 0x00, 0x00, 0x65, 0x74, 0x68, 0x6f, 0x73, 0x2d, 0x75, 0x35, 0x35, 0x2d, 0x31, 0x32, 
0x38, 0x00, 0x00, 0x00, 0x06, 0x00, 0x00, 0x00, 0x74, 0x61, 0x72, 0x67, 0x65, 0x74, 0x00, 0x00, 0xfc, 0xf8, 0xff, 0xff, 0x10, 0x00, 0x00, 0x00, 0x04, 0x00, 0x00, 0x00, 0x04, 0x00, 0x00, 0x00, 
0x76, 0x65, 0x6c, 0x61, 0x0d, 0x00, 0x00, 0x00, 0x6f, 0x75, 0x74, 0x70, 0x75, 0x74, 0x5f, 0x66, 0x6f, 0x72, 0x6d, 0x61, 0x74, 0x00, 0x00, 0x00, 0x24, 0xf9, 0xff, 0xff, 0xdc, 0x00, 0x00, 0x00, 
0x04, 0x00, 0x00, 0x00, 0xce, 0x00, 0x00, 0x00, 0x2d, 0x2d, 0x6f, 0x75, 0x74, 0x70, 0x75, 0x74, 0x2d, 0x66, 0x6f, 0x72, 0x6d, 0x61, 0x74, 0x3d, 0x72, 0x61, 0x77, 0x20, 0x2d, 0x2d, 0x64, 0x65, 
0x62, 0x75, 0x67, 0x2d, 0x66, 0x6f, 0x72, 0x63, 0x65, 0x2d, 0x72, 0x65, 0x67, 0x6f, 0x72, 0x20, 0x2d, 0x2d, 0x61, 0x63, 0x63, 0x65, 0x6c, 0x65, 0x72, 0x61, 0x74, 0x6f, 0x72, 0x2d, 0x63, 0x6f, 
0x6e, 0x66, 0x69, 0x67, 0x3d, 0x65, 0x74, 0x68, 0x6f, 0x73, 0x2d, 0x75, 0x35, 0x35, 0x2d, 0x31, 0x32, 0x38, 0x20, 0x2d, 0x2d, 0x63, 0x6f, 0x6e, 0x66, 0x69, 0x67, 0x3d, 0x41, 0x72, 0x6d, 0x2f, 
0x76, 0x65, 0x6c, 0x61, 0x2e, 0x69, 0x6e, 0x69, 0x20, 0x2d, 0x2d, 0x6f, 0x75, 0x74, 0x70, 0x75, 0x74, 0x2d, 0x66, 0x6f, 0x72, 0x6d, 0x61, 0x74, 0x3d, 0x72, 0x61, 0x77, 0x20, 0x2d, 0x2d, 0x64, 
0x65, 0x62, 0x75, 0x67, 0x2d, 0x66, 0x6f, 0x72, 0x63, 0x65, 0x2d, 0x72, 0x65, 0x67, 0x6f, 0x72, 0x20, 0x2d, 0x2d, 0x73, 0x79, 0x73, 0x74, 0x65, 0x6d, 0x2d, 0x63, 0x6f, 0x6e, 0x66, 0x69, 0x67, 
0x3d, 0x45, 0x74, 0x68, 0x6f, 0x73, 0x5f, 0x55, 0x35, 0x35, 0x5f, 0x48, 0x69, 0x67, 0x68, 0x5f, 0x45, 0x6e, 0x64, 0x5f, 0x45, 0x6d, 0x62, 0x65, 0x64, 0x64, 0x65, 0x64, 0x20, 0x2d, 0x2d, 0x6d, 
0x65, 0x6d, 0x6f, 0x72, 0x79, 0x2d, 0x6d, 0x6f, 0x64, 0x65, 0x3d, 0x53, 0x68, 0x61, 0x72, 0x65, 0x64, 0x5f, 0x53, 0x72, 0x61, 0x6d, 0x00, 0x00, 0x0d, 0x00, 0x00, 0x00, 0x63, 0x6f, 0x6d, 0x70, 
0x69, 0x6c, 0x65, 0x5f, 0x66, 0x6c, 0x61, 0x67, 0x73, 0x00, 0x00, 0x00, 0x18, 0xfa, 0xff, 0xff, 0x24, 0x00, 0x00, 0x00, 0x04, 0x00, 0x00, 0x00, 0x16, 0x00, 0x00, 0x00, 0x54, 0x4f, 0x53, 0x41, 
0x2d, 0x31, 0x2e, 0x30, 0x2b, 0x49, 0x4e, 0x54, 0x2b, 0x69, 0x6e, 0x74, 0x31, 0x36, 0x2b, 0x75, 0x35, 0x35, 0x00, 0x00, 0x09, 0x00, 0x00, 0x00, 0x74, 0x6f, 0x73, 0x61, 0x5f, 0x73, 0x70, 0x65, 
0x63, 0x00, 0x00, 0x00, 0xbc, 0xfd, 0xff, 0xff, 0x0d, 0x00, 0x00, 0x00, 0x45, 0x74, 0x68, 0x6f, 0x73, 0x55, 0x42, 0x61, 0x63, 0x6b, 0x65, 0x6e, 0x64, 0x00, 0x00, 0x00, 0x02, 0x00, 0x00, 0x00, 
0x4c, 0x00, 0x00, 0x00, 0x04, 0x00, 0x00, 0x00, 0x74, 0xfa, 0xff, 0xff, 0x10, 0x00, 0x00, 0x00, 0x04, 0x00, 0x00, 0x00, 0x03, 0x00, 0x00, 0x00, 0x6f, 0x75, 0x74, 0x00, 0x2b, 0x00, 0x00, 0x00, 
0x71, 0x75, 0x61, 0x6e, 0x74, 0x69, 0x7a, 0x65, 0x64, 0x5f, 0x64, 0x65, 0x63, 0x6f, 0x6d, 0x70, 0x6f, 0x73, 0x65, 0x64, 0x3a, 0x3a, 0x64, 0x65, 0x71, 0x75, 0x61, 0x6e, 0x74, 0x69, 0x7a, 0x65, 
0x5f, 0x70, 0x65, 0x72, 0x5f, 0x74, 0x65, 0x6e, 0x73, 0x6f, 0x72, 0x00, 0xb8, 0xfa, 0xff, 0xff, 0x10, 0x00, 0x00, 0x00, 0x04, 0x00, 0x00, 0x00, 0x03, 0x00, 0x00, 0x00, 0x6f, 0x75, 0x74, 0x00, 
0x29, 0x00, 0x00, 0x00, 0x71, 0x75, 0x61, 0x6e, 0x74, 0x69, 0x7a, 0x65, 0x64, 0x5f, 0x64, 0x65, 0x63, 0x6f, 0x6d, 0x70, 0x6f, 0x73, 0x65, 0x64, 0x3a, 0x3a, 0x71, 0x75, 0x61, 0x6e, 0x74, 0x69, 
0x7a, 0x65, 0x5f, 0x70, 0x65, 0x72, 0x5f, 0x74, 0x65, 0x6e, 0x73, 0x6f, 0x72, 0x00, 0x00, 0x00, 0x01, 0x00, 0x00, 0x00, 0x10, 0x00, 0x00, 0x00, 0x00, 0x00, 0x0a, 0x00, 0x10, 0x00, 0x04, 0x00, 
0x08, 0x00, 0x0c, 0x00, 0x0a, 0x00, 0x00, 0x00, 0x00, 0x01, 0x00, 0x00, 0xf8, 0x00, 0x00, 0x00, 0x04, 0x00, 0x00, 0x00, 0x04, 0x00, 0x00, 0x00, 0xac, 0x00, 0x00, 0x00, 0x70, 0x00, 0x00, 0x00, 
0x48, 0x00, 0x00, 0x00, 0x04, 0x00, 0x00, 0x00, 0x48, 0xfc, 0xff, 0xff, 0x00, 0x00, 0x00, 0x01, 0x04, 0x00, 0x00, 0x00, 0x40, 0xfb, 0xff, 0xff, 0x01, 0x00, 0x00, 0x00, 0x04, 0x00, 0x00, 0x00, 
0x09, 0x00, 0x00, 0x00, 0x0e, 0x00, 0x00, 0x00, 0x10, 0x00, 0x00, 0x00, 0x11, 0x00, 0x00, 0x00, 0x12, 0x00, 0x00, 0x00, 0x13, 0x00, 0x00, 0x00, 0x14, 0x00, 0x00, 0x00, 0x15, 0x00, 0x00, 0x00, 
0x0f, 0x00, 0x00, 0x00, 0x0f, 0x00, 0x00, 0x00, 0x88, 0xfc, 0xff, 0xff, 0x00, 0x00, 0x00, 0x02, 0x04, 0x00, 0x00, 0x00, 0xa4, 0xff, 0xff, 0xff, 0x04, 0x00, 0x00, 0x00, 0x03, 0x00, 0x00, 0x00, 
0x02, 0x00, 0x00, 0x00, 0x08, 0x00, 0x00, 0x00, 0x0e, 0x00, 0x00, 0x00, 0xac, 0xfc, 0xff, 0xff, 0x00, 0x00, 0x00, 0x01, 0x04, 0x00, 0x00, 0x00, 0xc8, 0xff, 0xff, 0xff, 0x04, 0x00, 0x00, 0x00, 
0x08, 0x00, 0x00, 0x00, 0x01, 0x00, 0x00, 0x00, 0x09, 0x00, 0x00, 0x00, 0x0a, 0x00, 0x00, 0x00, 0x0b, 0x00, 0x00, 0x00, 0x0c, 0x00, 0x00, 0x00, 0x0d, 0x00, 0x00, 0x00, 0x08, 0x00, 0x00, 0x00, 
0x08, 0x00, 0x00, 0x00, 0xe4, 0xfc, 0xff, 0xff, 0x00, 0x00, 0x00, 0x01, 0x0c, 0x00, 0x00, 0x00, 0x08, 0x00, 0x08, 0x00, 0x00, 0x00, 0x04, 0x00, 0x08, 0x00, 0x00, 0x00, 0x04, 0x00, 0x00, 0x00, 
0x08, 0x00, 0x00, 0x00, 0x00, 0x00, 0x00, 0x00, 0x03, 0x00, 0x00, 0x00, 0x04, 0x00, 0x00, 0x00, 0x05, 0x00, 0x00, 0x00, 0x06, 0x00, 0x00, 0x00, 0x07, 0x00, 0x00, 0x00, 0x02, 0x00, 0x00, 0x00, 
0x02, 0x00, 0x00, 0x00, 0x00, 0x00, 0x00, 0x00, 0x00, 0x00, 0x00, 0x00, 0x01, 0x00, 0x00, 0x00, 0x0f, 0x00, 0x00, 0x00, 0x02, 0x00, 0x00, 0x00, 0x00, 0x00, 0x00, 0x00, 0x01, 0x00, 0x00, 0x00, 
0x16, 0x00, 0x00, 0x00, 0x70, 0x03, 0x00, 0x00, 0x08, 0x03, 0x00, 0x00, 0xbc, 0x02, 0x00, 0x00, 0x90, 0x02, 0x00, 0x00, 0x74, 0x02, 0x00, 0x00, 0x58, 0x02, 0x00, 0x00, 0x3c, 0x02, 0x00, 0x00, 
0x20, 0x02, 0x00, 0x00, 0xd8, 0x01, 0x00, 0x00, 0xb0, 0x01, 0x00, 0x00, 0x94, 0x01, 0x00, 0x00, 0x78, 0x01, 0x00, 0x00, 0x5c, 0x01, 0x00, 0x00, 0x40, 0x01, 0x00, 0x00, 0xf4, 0x00, 0x00, 0x00, 
0xac, 0x00, 0x00, 0x00, 0x8c, 0x00, 0x00, 0x00, 0x70, 0x00, 0x00, 0x00, 0x54, 0x00, 0x00, 0x00, 0x38, 0x00, 0x00, 0x00, 0x1c, 0x00, 0x00, 0x00, 0x04, 0x00, 0x00, 0x00, 0x9c, 0xfd, 0xff, 0xff, 
0x00, 0x00, 0x00, 0x01, 0x08, 0x00, 0x00, 0x00, 0x04, 0x00, 0x04, 0x00, 0x04, 0x00, 0x00, 0x00, 0xb0, 0xfd, 0xff, 0xff, 0x00, 0x00, 0x00, 0x02, 0x04, 0x00, 0x00, 0x00, 0xce, 0xfd, 0xff, 0xff, 
0x01, 0x00, 0x00, 0x00, 0x00, 0x00, 0x00, 0x00, 0xc8, 0xfd, 0xff, 0xff, 0x00, 0x00, 0x00, 0x02, 0x04, 0x00, 0x00, 0x00, 0xe6, 0xfd, 0xff, 0xff, 0x7f, 0x00, 0x00, 0x00, 0x00, 0x00, 0x00, 0x00, 
0xe0, 0xfd, 0xff, 0xff, 0x00, 0x00, 0x00, 0x02, 0x04, 0x00, 0x00, 0x00, 0xfe, 0xfd, 0xff, 0xff, 0x80, 0xff, 0xff, 0xff, 0xff, 0xff, 0xff, 0xff, 0xf8, 0xfd, 0xff, 0xff, 0x00, 0x00, 0x00, 0x02, 
0x04, 0x00, 0x00, 0x00, 0x16, 0xfe, 0xff, 0xff, 0x80, 0xff, 0xff, 0xff, 0xff, 0xff, 0xff, 0xff, 0x10, 0xfe, 0xff, 0xff, 0x00, 0x00, 0x00, 0x04, 0x04, 0x00, 0x00, 0x00, 0xf6, 0xfe, 0xff, 0xff, 
0x00, 0x00, 0x00, 0x20, 0x10, 0x10, 0x80, 0x3f, 0x00, 0x00, 0x00, 0x00, 0x2c, 0xfe, 0xff, 0xff, 0x00, 0x00, 0x00, 0x05, 0x04, 0x00, 0x00, 0x00, 0xda, 0xfd, 0xff, 0xff, 0x00, 0x00, 0x00, 0x06, 
0x1c, 0x00, 0x00, 0x00, 0x10, 0x00, 0x00, 0x00, 0x04, 0x00, 0x00, 0x00, 0x62, 0xfd, 0xff, 0xff, 0x01, 0x00, 0x00, 0x00, 0x04, 0x00, 0x00, 0x00, 0x00, 0x01, 0x02, 0x03, 0x04, 0x00, 0x00, 0x00, 
0x01, 0x00, 0x00, 0x00, 0x01, 0x00, 0x00, 0x00, 0x01, 0x00, 0x00, 0x00, 0x01, 0x00, 0x00, 0x00, 0x70, 0xfe, 0xff, 0xff, 0x00, 0x00, 0x00, 0x05, 0x04, 0x00, 0x00, 0x00, 0x1e, 0xfe, 0xff, 0xff, 
0x00, 0x00, 0x00, 0x01, 0x20, 0x00, 0x00, 0x00, 0x14, 0x00, 0x00, 0x00, 0x04, 0x00, 0x00, 0x00, 0x7c, 0xfd, 0xff, 0xff, 0x01, 0x00, 0x00, 0x00, 0x10, 0x00, 0x00, 0x00, 0x04, 0x00, 0x00, 0x00, 
0x00, 0x01, 0x02, 0x03, 0x04, 0x00, 0x00, 0x00, 0x01, 0x00, 0x00, 0x00, 0x01, 0x00, 0x00, 0x00, 0x01, 0x00, 0x00, 0x00, 0x01, 0x00, 0x00, 0x00, 0xb8, 0xfe, 0xff, 0xff, 0x00, 0x00, 0x00, 0x02, 
0x04, 0x00, 0x00, 0x00, 0xd6, 0xfe, 0xff, 0xff, 0x01, 0x00, 0x00, 0x00, 0x00, 0x00, 0x00, 0x00, 0xd0, 0xfe, 0xff, 0xff, 0x00, 0x00, 0x00, 0x02, 0x04, 0x00, 0x00, 0x00, 0xee, 0xfe, 0xff, 0xff, 
0x7f, 0x00, 0x00, 0x00, 0x00, 0x00, 0x00, 0x00, 0xe8, 0xfe, 0xff, 0xff, 0x00, 0x00, 0x00, 0x02, 0x04, 0x00, 0x00, 0x00, 0x06, 0xff, 0xff, 0xff, 0x80, 0xff, 0xff, 0xff, 0xff, 0xff, 0xff, 0xff, 
0x00, 0xff, 0xff, 0xff, 0x00, 0x00, 0x00, 0x02, 0x04, 0x00, 0x00, 0x00, 0x1e, 0xff, 0xff, 0xff, 0x80, 0xff, 0xff, 0xff, 0xff, 0xff, 0xff, 0xff, 0x6c, 0xfe, 0xff, 0xff, 0x00, 0x00, 0x00, 0x04, 
0x0c, 0x00, 0x00, 0x00, 0x00, 0x00, 0x06, 0x00, 0x10, 0x00, 0x04, 0x00, 0x06, 0x00, 0x00, 0x00, 0x00, 0x00, 0x00, 0x20, 0x10, 0x10, 0x70, 0x3f, 0x00, 0x00, 0x00, 0x00, 0x3c, 0xff, 0xff, 0xff, 
0x00, 0x00, 0x00, 0x05, 0x04, 0x00, 0x00, 0x00, 0xea, 0xfe, 0xff, 0xff, 0x00, 0x00, 0x00, 0x01, 0x1c, 0x00, 0x00, 0x00, 0x10, 0x00, 0x00, 0x00, 0x04, 0x00, 0x00, 0x00, 0x72, 0xfe, 0xff, 0xff, 
0x01, 0x00, 0x00, 0x00, 0x04, 0x00, 0x00, 0x00, 0x00, 0x01, 0x02, 0x03, 0x04, 0x00, 0x00, 0x00, 0x01, 0x00, 0x00, 0x00, 0x01, 0x00, 0x00, 0x00, 0x01, 0x00, 0x00, 0x00, 0x01, 0x00, 0x00, 0x00, 
0x80, 0xff, 0xff, 0xff, 0x00, 0x00, 0x00, 0x02, 0x04, 0x00, 0x00, 0x00, 0x9e, 0xff, 0xff, 0xff, 0x01, 0x00, 0x00, 0x00, 0x00, 0x00, 0x00, 0x00, 0x98, 0xff, 0xff, 0xff, 0x00, 0x00, 0x00, 0x02, 
0x04, 0x00, 0x00, 0x00, 0xb6, 0xff, 0xff, 0xff, 0x7f, 0x00, 0x00, 0x00, 0x00, 0x00, 0x00, 0x00, 0xb0, 0xff, 0xff, 0xff, 0x00, 0x00, 0x00, 0x02, 0x04, 0x00, 0x00, 0x00, 0xce, 0xff, 0xff, 0xff, 
0x80, 0xff, 0xff, 0xff, 0xff, 0xff, 0xff, 0xff, 0xc8, 0xff, 0xff, 0xff, 0x00, 0x00, 0x00, 0x02, 0x04, 0x00, 0x00, 0x00, 0xe6, 0xff, 0xff, 0xff, 0x80, 0xff, 0xff, 0xff, 0xff, 0xff, 0xff, 0xff, 
0x34, 0xff, 0xff, 0xff, 0x00, 0x00, 0x00, 0x04, 0x0c, 0x00, 0x00, 0x00, 0x00, 0x00, 0x06, 0x00, 0x0c, 0x00, 0x04, 0x00, 0x06, 0x00, 0x00, 0x00, 0x00, 0x00, 0x00, 0x20, 0x10, 0x10, 0x70, 0x3f, 
0x08, 0x00, 0x0c, 0x00, 0x07, 0x00, 0x08, 0x00, 0x08, 0x00, 0x00, 0x00, 0x00, 0x00, 0x00, 0x05, 0x04, 0x00, 0x00, 0x00, 0xb6, 0xff, 0xff, 0xff, 0x00, 0x00, 0x00, 0x01, 0x20, 0x00, 0x00, 0x00, 
0x14, 0x00, 0x00, 0x00, 0x04, 0x00, 0x00, 0x00, 0x14, 0xff, 0xff, 0xff, 0x01, 0x00, 0x00, 0x00, 0x20, 0x00, 0x00, 0x00, 0x04, 0x00, 0x00, 0x00, 0x00, 0x01, 0x02, 0x03, 0x04, 0x00, 0x00, 0x00, 
0x01, 0x00, 0x00, 0x00, 0x01, 0x00, 0x00, 0x00, 0x01, 0x00, 0x00, 0x00, 0x01, 0x00, 0x00, 0x00, 0xa4, 0xff, 0xff, 0xff, 0x00, 0x00, 0x00, 0x05, 0x18, 0x00, 0x00, 0x00, 0x00, 0x00, 0x12, 0x00, 
0x14, 0x00, 0x07, 0x00, 0x00, 0x00, 0x08, 0x00, 0x0c, 0x00, 0x00, 0x00, 0x00, 0x00, 0x10, 0x00, 0x12, 0x00, 0x00, 0x00, 0x00, 0x00, 0x00, 0x06, 0x20, 0x00, 0x00, 0x00, 0x14, 0x00, 0x00, 0x00, 
0x04, 0x00, 0x00, 0x00, 0x70, 0xff, 0xff, 0xff, 0x01, 0x00, 0x00, 0x00, 0x10, 0x00, 0x00, 0x00, 0x04, 0x00, 0x00, 0x00, 0x00, 0x01, 0x02, 0x03, 0x04, 0x00, 0x00, 0x00, 0x01, 0x00, 0x00, 0x00, 
0x01, 0x00, 0x00, 0x00, 0x01, 0x00, 0x00, 0x00, 0x01, 0x00, 0x00, 0x00, 0x08, 0x00, 0x0e, 0x00, 0x07, 0x00, 0x08, 0x00, 0x08, 0x00, 0x00, 0x00, 0x00, 0x00, 0x00, 0x05, 0x18, 0x00, 0x00, 0x00, 
0x00, 0x00, 0x12, 0x00, 0x16, 0x00, 0x07, 0x00, 0x00, 0x00, 0x08, 0x00, 0x0c, 0x00, 0x00, 0x00, 0x00, 0x00, 0x10, 0x00, 0x12, 0x00, 0x00, 0x00, 0x00, 0x00, 0x00, 0x06, 0x24, 0x00, 0x00, 0x00, 
0x18, 0x00, 0x00, 0x00, 0x0c, 0x00, 0x00, 0x00, 0x00, 0x00, 0x06, 0x00, 0x08, 0x00, 0x04, 0x00, 0x06, 0x00, 0x00, 0x00, 0x01, 0x00, 0x00, 0x00, 0x04, 0x00, 0x00, 0x00, 0x00, 0x01, 0x02, 0x03, 
0x04, 0x00, 0x00, 0x00, 0x01, 0x00, 0x00, 0x00, 0x01, 0x00, 0x00, 0x00, 0x01, 0x00, 0x00, 0x00, 0x01, 0x00, 0x00, 0x00, 0x08, 0x00, 0x0c, 0x00, 0x04, 0x00, 0x08, 0x00, 0x08, 0x00, 0x00, 0x00, 
0x48, 0x00, 0x00, 0x00, 0x04, 0x00, 0x00, 0x00, 0x39, 0x00, 0x00, 0x00, 0x5b, 0x31, 0x2c, 0x20, 0x7b, 0x22, 0x74, 0x79, 0x70, 0x65, 0x22, 0x3a, 0x20, 0x6e, 0x75, 0x6c, 0x6c, 0x2c, 0x20, 0x22, 
0x63, 0x6f, 0x6e, 0x74, 0x65, 0x78, 0x74, 0x22, 0x3a, 0x20, 0x6e, 0x75, 0x6c, 0x6c, 0x2c, 0x20, 0x22, 0x63, 0x68, 0x69, 0x6c, 0x64, 0x72, 0x65, 0x6e, 0x5f, 0x73, 0x70, 0x65, 0x63, 0x22, 0x3a, 
0x20, 0x5b, 0x5d, 0x7d, 0x5d, 0x00, 0x00, 0x00, 0x34, 0x01, 0x00, 0x00, 0x5b, 0x31, 0x2c, 0x20, 0x7b, 0x22, 0x74, 0x79, 0x70, 0x65, 0x22, 0x3a, 0x20, 0x22, 0x62, 0x75, 0x69, 0x6c, 0x74, 0x69, 
0x6e, 0x73, 0x2e, 0x74, 0x75, 0x70, 0x6c, 0x65, 0x22, 0x2c, 0x20, 0x22, 0x63, 0x6f, 0x6e, 0x74, 0x65, 0x78, 0x74, 0x22, 0x3a, 0x20, 0x22, 0x6e, 0x75, 0x6c, 0x6c, 0x22, 0x2c, 0x20, 0x22, 0x63, 
0x68, 0x69, 0x6c, 0x64, 0x72, 0x65, 0x6e, 0x5f, 0x73, 0x70, 0x65, 0x63, 0x22, 0x3a, 0x20, 0x5b, 0x7b, 0x22, 0x74, 0x79, 0x70, 0x65, 0x22, 0x3a, 0x20, 0x22, 0x62, 0x75, 0x69, 0x6c, 0x74, 0x69, 
0x6e, 0x73, 0x2e, 0x74, 0x75, 0x70, 0x6c, 0x65, 0x22, 0x2c, 0x20, 0x22, 0x63, 0x6f, 0x6e, 0x74, 0x65, 0x78, 0x74, 0x22, 0x3a, 0x20, 0x22, 0x6e, 0x75, 0x6c, 0x6c, 0x22, 0x2c, 0x20, 0x22, 0x63, 
0x68, 0x69, 0x6c, 0x64, 0x72, 0x65, 0x6e, 0x5f, 0x73, 0x70, 0x65, 0x63, 0x22, 0x3a, 0x20, 0x5b, 0x7b, 0x22, 0x74, 0x79, 0x70, 0x65, 0x22, 0x3a, 0x20, 0x6e, 0x75, 0x6c, 0x6c, 0x2c, 0x20, 0x22, 
0x63, 0x6f, 0x6e, 0x74, 0x65, 0x78, 0x74, 0x22, 0x3a, 0x20, 0x6e, 0x75, 0x6c, 0x6c, 0x2c, 0x20, 0x22, 0x63, 0x68, 0x69, 0x6c, 0x64, 0x72, 0x65, 0x6e, 0x5f, 0x73, 0x70, 0x65, 0x63, 0x22, 0x3a, 
0x20, 0x5b, 0x5d, 0x7d, 0x2c, 0x20, 0x7b, 0x22, 0x74, 0x79, 0x70, 0x65, 0x22, 0x3a, 0x20, 0x6e, 0x75, 0x6c, 0x6c, 0x2c, 0x20, 0x22, 0x63, 0x6f, 0x6e, 0x74, 0x65, 0x78, 0x74, 0x22, 0x3a, 0x20, 
0x6e, 0x75, 0x6c, 0x6c, 0x2c, 0x20, 0x22, 0x63, 0x68, 0x69, 0x6c, 0x64, 0x72, 0x65, 0x6e, 0x5f, 0x73, 0x70, 0x65, 0x63, 0x22, 0x3a, 0x20, 0x5b, 0x5d, 0x7d, 0x5d, 0x7d, 0x2c, 0x20, 0x7b, 0x22, 
0x74, 0x79, 0x70, 0x65, 0x22, 0x3a, 0x20, 0x22, 0x62, 0x75, 0x69, 0x6c, 0x74, 0x69, 0x6e, 0x73, 0x2e, 0x64, 0x69, 0x63, 0x74, 0x22, 0x2c, 0x20, 0x22, 0x63, 0x6f, 0x6e, 0x74, 0x65, 0x78, 0x74, 
0x22, 0x3a, 0x20, 0x22, 0x5b, 0x5d, 0x22, 0x2c, 0x20, 0x22, 0x63, 0x68, 0x69, 0x6c, 0x64, 0x72, 0x65, 0x6e, 0x5f, 0x73, 0x70, 0x65, 0x63, 0x22, 0x3a, 0x20, 0x5b, 0x5d, 0x7d, 0x5d, 0x7d, 0x5d, 
0x00, 0x00, 0x00, 0x00, 0x07, 0x00, 0x00, 0x00, 0x66, 0x6f, 0x72, 0x77, 0x61, 0x72, 0x64, 0x00, };
